, 206845
. 175904
the 145393
and 104089
to 85399
of 80416
a 77135
that 64511
i 58108
in 55649
it 53557
you 50295
we 45557
is 45542
&apos;s 39917
this 34884
so 25789
&quot; 24563
they 22629
was 20506
on 20491
for 20423
-- 20272
are 19376
what 18784
have 18729
but 17942
with 17161
can 16619
@-@ 16072
? 15536
&apos;t 15319
there 14768
about 14704
as 14179
at 14093
be 14019
all 13713
do 12818
one 12678
not 12450
&apos;re 11978
an 11915
my 11746
people 11333
if 11044
like 11030
from 10814
or 10395
he 10293
now 10184
these 9720
just 9657
: 9200
our 9129
very 9105
when 8765
because 8744
me 8604
out 8561
by 8373
how 8306
up 8206
going 8118
know 8091
them 7896
here 7398
which 7374
more 7294
think 7243
see 7239
had 7174
your 6836
who 6781
really 6776
get 6676
us 6663
their 6593
would 6579
then 6570
ed 6540
&apos;ve 6479
were 6474
ing 6284
world 6268
time 6190
&apos;m 6145
some 6088
re@@ 6077
way 5854
don 5779
has 5765
actually 5681
into 5558
where 5469
go 5395
things 5359
well 5212
will 5201
years 5196
es 5128
other 5097
no 5024
want 4925
could 4826
right 4725
make 4709
been 4603
said 4536
two 4371
something 4349
she 4328
first 4210
in@@ 4168
look 4113
s 4085
those 4078
thing 4066
much 4041
than 4038
little 4029
got 4000
his 3966
y 3949
new 3876
also 3835
life 3785
back 3778
; 3768
say 3699
work 3682
over 3673
c@@ 3603
most 3593
s@@ 3566
kind 3466
only 3461
even 3426
take 3423
a@@ 3418
able 3341
un@@ 3302
many 3279
al 3274
need 3252
did 3239
lot 3236
e@@ 3219
good 3170
ti@@ 3104
let 3102
why 3102
around 3097
&apos;ll 3057
down 3056
come 3035
ted 2957
o@@ 2942
different 2912
through 2898
use 2897
day 2887
li@@ 2879
d@@ 2860
every 2859
g@@ 2851
her 2847
de@@ 2777
p@@ 2760
same 2693
three 2685
put 2677
being 2669
t@@ 2656
doing 2633
ts 2628
i@@ 2615
its 2607
e 2589
y@@ 2565
year 2561
co@@ 2507
b@@ 2501
con@@ 2482
called 2417
any 2400
en@@ 2366
di@@ 2363
&apos;d 2340
talk 2316
made 2308
percent 2286
ma@@ 2272
great 2269
u@@ 2248
ated 2230
today 2229
o 2213
m 2211
after 2202
tell 2185
human 2155
er 2130
ar@@ 2118
po@@ 2100
fact 2096
big 2086
find 2065
another 2046
ly 2043
thank 2024
ds 2018
ri@@ 2016
last 2012
own 1989
didn 1985
change 1979
idea 1970
al@@ 1963
give 1946
m@@ 1940
before 1933
ers 1932
se@@ 1931
p 1929
should 1926
went 1926
thought 1920
ation 1918
off 1901
started 1892
dis@@ 1879
tions 1872
ro@@ 1871
course 1859
end 1857
man 1845
v@@ 1845
pro@@ 1843
le 1834
again 1831
story 1831
an@@ 1830
ve 1826
better 1819
t 1817
never 1812
le@@ 1809
show 1803
ate 1790
important 1785
ting 1778
long 1774
problem 1774
ch@@ 1773
does 1767
system 1766
next 1759
start 1748
each 1745
water 1741
old 1739
part 1735
him 1731
bit 1730
f@@ 1727
c 1722
together 1722
place 1721
might 1720
still 1719
used 1718
d 1713
brain 1709
lo@@ 1708
r@@ 1699
k@@ 1696
ago 1690
technology 1680
came 1674
l@@ 1674
com@@ 1668
&apos; 1630
few 1612
mean 1600
ra@@ 1599
point 1594
between 1581
looking 1581
ad@@ 1572
or@@ 1565
ous 1563
too 1563
on@@ 1553
te 1548
try 1536
sort 1530
th@@ 1524
st@@ 1518
ever 1515
ac@@ 1509
maybe 1509
done 1506
children 1503
love 1502
pre@@ 1493
h@@ 1477
ex@@ 1476
four 1476
sh@@ 1476
ating 1473
data 1468
red 1467
found 1464
question 1461
whole 1461
doesn 1450
example 1450
less 1450
light 1449
as@@ 1442
k 1440
ding 1439
school 1437
w@@ 1428
el@@ 1424
real 1422
ce 1418
age 1412
understand 1412
bi@@ 1407
wanted 1404
am 1403
using 1401
si@@ 1399
may 1395
million 1394
tion 1379
it@@ 1376
live 1376
five 1375
pi@@ 1373
ty 1373
working 1371
10 1366
call 1365
ct 1363
ent 1363
away 1357
ck 1357
trying 1350
women 1338
at@@ 1336
ded 1333
im@@ 1330
power 1330
se 1327
everything 1321
person 1321
ic 1320
always 1319
money 1316
believe 1312
g 1311
kids 1298
feel 1296
ction 1295
ally 1293
design 1292
est 1292
vi@@ 1288
l 1279
sc@@ 1276
space 1276
per@@ 1258
help 1256
country 1253
de 1253
second 1251
ab@@ 1248
n@@ 1240
pe@@ 1234
bo@@ 1222
times 1221
be@@ 1219
comes 1219
number 1217
ary 1216
es@@ 1215
took 1214
energy 1207
information 1206
! 1201
car@@ 1200
thinking 1200
create 1199
high 1194
bu@@ 1191
food 1191
sense 1187
ni@@ 1186
ks 1180
means 1179
city 1177
op@@ 1177
side 1177
am@@ 1176
making 1175
j@@ 1174
mi@@ 1166
left 1165
quite 1164
par@@ 1163
ves 1163
future 1158
als 1157
ant 1157
getting 1156
small 1156
h 1149
mar@@ 1148
become 1143
best 1140
enough 1140
king 1138
play 1137
em@@ 1136
science 1135
says 1134
to@@ 1134
building 1132
probably 1131
ons 1130
ke 1128
me@@ 1128
ta@@ 1125
ine 1118
half 1113
mo@@ 1111
er@@ 1108
ability 1099
without 1098
home 1095
der 1091
stuff 1085
th 1083
interesting 1080
social 1077
body 1075
talking 1075
x 1075
room 1074
earth 1071
coming 1069
ment 1068
africa 1067
happened 1064
ways 1063
ses 1055
do@@ 1054
ist 1052
su@@ 1047
dollars 1044
inter@@ 1044
men 1044
no@@ 1040
tic 1040
is@@ 1039
ne@@ 1037
um 1036
set 1033
ties 1031
tive 1030
build 1028
art 1026
la@@ 1026
ask 1024
ter 1021
20 1020
pa@@ 1020
form 1019
anything 1017
line 1016
pretty 1013
ver@@ 1013
mind 1010
ar 1008
ge@@ 1007
tra@@ 1004
gra@@ 1000
case 998
hand 997
while 997
days 996
move 996
simple 996
goes 992
he@@ 988
ps 988
lives 987
makes 987
seen 984
ok 983
te@@ 983
w 979
across 976
basically 976
living 976
cor@@ 973
happen 967
once 967
such 967
else 958
told 958
moment 957
ch 952
imagine 952
countries 951
health 951
okay 949
fe@@ 948
saw 948
hard 945
picture 945
fi@@ 943
des 942
project 941
having 939
car 938
bad 935
yet 933
mon@@ 931
six 930
happens 928
care 925
sa@@ 925
computer 924
book 921
ble 914
gu@@ 914
problems 914
&amp; 913
ones 910
sts 910
family 907
top 907
ins 905
ho@@ 902
learn 900
open 900
experience 898
later 897
sure 894
z@@ 894
hi@@ 893
ance 892
self 892
global 891
cted 888
per 887
asked 885
b 885
everybody 883
.@@ 881
min@@ 881
ideas 880
inside 880
for@@ 878
ci@@ 877
ms 877
r 875
far 874
business 872
tri@@ 871
young 871
ir@@ 870
nature 870
ol@@ 870
single 870
n 869
ged 865
both 864
oh 862
50 861
process 861
planet 860
cy 859
reason 858
son 858
f 856
states 856
almost 854
nothing 853
state 853
saying 852
child 849
billion 847
within 846
ely 844
ws 844
history 842
so@@ 842
re 837
looks 831
ck@@ 828
land 827
sing 826
ul@@ 826
wrong 825
whether 823
music 822
true 822
cells 819
under 819
guy 818
keep 818
bring 816
remember 816
ans 815
ging 815
war 813
already 809
cancer 809
30 803
possible 800
order 794
ies 793
ity 792
du@@ 791
over@@ 790
looked 786
0s 784
ger 783
zed 783
heard 782
hope 782
piece 782
pl@@ 782
house 781
matter 781
face 780
beautiful 779
read 777
sp@@ 777
... 775
answer 775
yes 775
head 774
often 774
&#91; 773
&#93; 773
built 773
ors 772
gets 771
video 770
late 767
qu@@ 766
ful 765
gi@@ 765
ha@@ 764
works 764
under@@ 763
gs 762
months 757
lin@@ 755
sub@@ 754
group 753
ze 753
community 752
public 751
someone 750
india 749
ars 748
mu@@ 748
god 747
isn 747
amazing 746
research 746
middle 744
universe 744
trans@@ 743
instead 742
pri@@ 742
sti@@ 742
united 742
ca@@ 739
che@@ 738
myself 738
stories 737
since 736
until 736
ved 733
sometimes 732
species 732
taking 732
places 730
words 730
cu@@ 729
education 729
ge 728
ving 723
turn 722
ur@@ 721
couple 720
control 719
sta@@ 719
heart 716
col@@ 715
government 715
somebody 714
ourselves 712
language 706
large 706
level 706
sur@@ 706
ents 705
ates 704
den@@ 704
her@@ 704
na@@ 704
pres@@ 704
internet 703
led 703
les 699
tu@@ 699
turns 699
low 698
decided 696
ness 696
yeah 695
kinds 694
mother 694
et@@ 693
night 692
tional 692
though 691
happy 690
stop 690
ence 689
front 688
ces 687
da@@ 687
game 687
exactly 685
run 685
rather 684
word 681
minutes 678
mis@@ 677
completely 675
rate 675
everyone 674
ste@@ 674
wasn 674
x@@ 674
model 673
fo@@ 671
ber@@ 670
out@@ 670
itself 669
je@@ 668
must 668
ph@@ 668
sion 667
job 665
om@@ 664
share 663
100 662
3@@ 662
cks 662
el 662
woman 662
man@@ 660
students 660
ru@@ 659
can@@ 658
themselves 658
happening 657
oil 657
society 657
ations 656
go@@ 656
ter@@ 656
third 655
became 654
animals 653
ag@@ 650
company 650
dra@@ 650
ments 648
news 648
em 646
hear 645
name 645
ined 643
america 642
created 642
jo@@ 642
learned 642
study 642
br@@ 641
wa@@ 641
huge 640
act 637
cal 637
disease 635
systems 635
view 635
table 634
environment 633
century 632
hours 631
friends 630
guys 629
natural 628
bar@@ 627
ju@@ 626
ling 625
shows 624
won 624
et 620
ry 619
along 618
figure 618
perhaps 618
stic 618
air 617
china 617
market 615
4@@ 614
moving 614
sound 614
worked 613
american 611
sen@@ 611
knew 610
early 609
fish 609
couldn 608
ent@@ 608
particular 608
questions 608
lots 607
ocean 603
seven 603
flo@@ 602
free 602
past 602
cra@@ 601
based 600
sho@@ 600
turned 600
cur@@ 598
learning 598
sted 598
sed 596
against 595
sha@@ 595
test 595
wing 594
area 593
cre@@ 592
least 591
gave 590
15 589
ga@@ 589
ked 589
cell 588
cr@@ 588
ters 587
zing 587
others 586
il@@ 585
takes 584
during 583
ics 580
machine 580
scale 580
cally 579
full 579
finally 578
known 577
close 576
ot@@ 575
har@@ 574
cts 573
difference 573
ali@@ 569
father 569
key 569
wi@@ 567
outside 566
thousands 565
taken 564
ture 564
wonderful 563
phone 562
cost 561
ying 561
des@@ 559
tation 559
culture 558
ator 557
needs 557
gh@@ 556
eight 554
entire 554
tr@@ 554
ess 552
us@@ 551
ground 550
cing 549
res@@ 548
fl@@ 547
powerful 546
war@@ 546
population 545
parts 544
seeing 544
leave 543
tor@@ 543
eyes 542
we@@ 542
behind 540
ce@@ 540
fin@@ 540
um@@ 540
yourself 540
bor@@ 539
pos@@ 539
whatever 539
black 538
force 538
fly 537
ges 536
lt 536
size 535
gl@@ 531
terms 531
ec@@ 530
grow 530
given 529
image 529
stage 529
au@@ 528
beginning 528
sk@@ 528
ver 528
walk 528
changed 527
clo@@ 527
fa@@ 526
2 525
audience 525
parents 525
pped 525
ches 524
green 524
amount 522
certain 522
ev@@ 522
rest 522
easy 520
ia 520
stor@@ 519
ap@@ 517
interested 517
media 516
/ 515
york 515
spend 514
center 513
economic 513
ism 513
u 511
ings 510
cannot 509
hands 509
difficult 508
dan@@ 507
death 507
id 505
cri@@ 503
buy 502
gers 502
gone 501
wor@@ 501
common 500
longer 500
and@@ 499
began 499
gr@@ 498
books 497
paper 497
team 497
deal 495
field 494
hu@@ 494
fu@@ 493
ser@@ 493
rec@@ 492
step 492
local 491
mit 491
ned 491
blue 490
ously 490
cities 489
born 488
bur@@ 488
friend 487
ou@@ 487
simply 487
ders 486
hold 486
ie 486
wh@@ 486
bri@@ 485
ari@@ 484
forward 484
needed 483
value 483
cting 481
humans 481
ship 481
tried 481
va@@ 481
week 480
ase 479
quickly 477
dly 476
clear 475
realized 475
pu@@ 473
watch 472
fast 471
growth 471
dna 470
either 470
short 469
stri@@ 469
40 468
char@@ 468
spent 468
ba@@ 467
companies 467
ic@@ 467
incredible 467
- 465
cho@@ 465
pen@@ 465
cli@@ 464
dy 464
lation 464
national 464
sitting 464
behavior 463
feet 463
ice 463
super@@ 463
surface 463
3 462
7@@ 462
fac@@ 462
mor@@ 462
complex 461
structure 460
lost 459
off@@ 459
south 459
miles 457
girl 456
west 456
white 456
ality 454
cap@@ 454
8 453
ja@@ 453
pay 453
cked 452
sea 452
st 452
tan@@ 452
die 451
ell@@ 451
ma 451
wouldn 451
der@@ 450
gre@@ 450
tion@@ 450
growing 449
economy 448
felt 448
ten@@ 448
dri@@ 447
knowledge 447
bs 445
met 445
political 445
poor 445
pt 445
reality 445
stra@@ 445
ys 445
str@@ 444
write 444
up@@ 443
eat 442
19@@ 441
bottom 441
animal 440
cut 440
fun 440
starting 439
street 439
technologies 439
ining 438
nu@@ 437
weeks 437
brought 436
developed 436
giving 436
opportunity 435
ens 434
pur@@ 434
els 433
sun 432
changes 431
deep 431
feeling 431
areas 430
cking 430
climate 430
patients 430
personal 430
scientists 430
telling 430
ats 429
inten@@ 429
sting 429
12 428
6@@ 428
ure 428
gives 427
ger@@ 426
nice 426
playing 426
theory 426
morning 425
1 424
bed 424
non 424
ori@@ 424
patient 424
,000 423
9@@ 423
anyone 423
tical 423
tur@@ 423
5@@ 422
wrote 422
average 421
bl@@ 421
4 419
program 419
equ@@ 418
u.s. 418
images 417
1@@ 416
ton 415
7 413
air@@ 413
ched 413
spi@@ 413
board 412
understanding 411
attention 410
cy@@ 410
literally 410
main 410
the@@ 410
yed 410
fied 409
material 409
ning 409
ster 409
fully 408
gt 407
vision 407
vo@@ 407
ently 406
pping 406
tro@@ 406
6 405
8@@ 405
cars 405
forms 405
mate 405
numbers 405
produce 405
challenge 404
eg@@ 404
ard 403
ban@@ 403
film 403
speak 403
alone 402
shape 402
squ@@ 402
ths 402
ven@@ 402
discovered 401
ented 401
mine 401
running 401
seems 400
wo@@ 400
cer@@ 399
tools 399
creating 398
mer@@ 398
stand 398
ther 397
access 395
lu@@ 395
cul@@ 394
modern 394
por@@ 394
realize 394
tru@@ 394
changing 392
gener@@ 392
map 392
nobody 392
physical 392
result 392
uses 392
web 392
movement 391
sin@@ 391
absolutely 390
normal 390
20@@ 389
died 389
focus 389
gen@@ 389
law 389
sive 389
developing 388
micro@@ 388
quality 388
dro@@ 387
hundreds 387
ig@@ 387
ob@@ 387
auth@@ 386
individual 386
millions 386
swe@@ 386
bes 385
english 385
recently 385
ical 384
lab 384
my@@ 384
bra@@ 383
gro@@ 383
wish 383
blood 382
industry 381
box 380
girls 380
physi@@ 379
relationship 379
solution 379
soon 379
ns 378
ology 378
wall 378
9 377
development 377
knows 377
product 377
north 376
anybody 375
kin@@ 375
bio@@ 374
colle@@ 374
dark 374
designed 374
ement 374
obviously 373
kid 372
major 372
cs 371
generation 371
incredibly 371
medical 371
pan@@ 371
vis@@ 371
cla@@ 370
ctions 370
dar@@ 370
don@@ 370
ei@@ 370
mass 370
25 369
experiment 369
hour 369
type 369
cat@@ 368
cool 368
innovation 368
save 368
seem 368
showed 368
available 367
compassion 367
coun@@ 367
haven 367
position 367
tend 367
chinese 366
connected 366
please 366
vers 366
likely 365
moved 365
present 365
tiny 365
tors 364
baby 363
begin 363
color 363
fall 363
talked 363
writing 363
0@@ 362
dic@@ 362
evolution 362
especially 361
games 361
guess 361
happiness 361
issue 361
revolution 361
class 360
materials 360
solve 360
tics 360
cles 359
dr@@ 359
she@@ 359
effect 358
fra@@ 358
199@@ 357
cop@@ 357
security 357
support 357
0,000 356
allow 356
bigger 356
eye 356
prin@@ 356
computers 355
da 355
kes 355
od@@ 355
online 355
solar 355
ced 354
continu@@ 354
worth 354
beyond 353
cal@@ 353
explain 353
mental 353
pictures 353
resources 353
wn 353
aren 352
boy 352
meet 352
network 351
perfect 351
carbon 350
dead 350
device 350
ele@@ 350
lived 350
oper@@ 350
tes 350
2@@ 349
becomes 349
deli@@ 349
sters 349
situation 348
university 348
action 347
drive 347
hundred 347
office 347
putting 347
reasons 347
scientific 347
sli@@ 347
zero 347
ared 346
digital 346
europe 346
hor@@ 346
ker 346
source 346
impact 345
ki@@ 345
special 345
star@@ 345
wer 345
bas@@ 344
bat@@ 344
cro@@ 344
en 344
inv@@ 344
nine 344
sions 343
east 342
fear 342
active 341
fil@@ 341
general 341
hand@@ 341
il 341
pla@@ 341
ted@@ 341
5 340
door 340
risk 340
teach 340
cket 339
eless 339
rules 339
sal@@ 339
schools 339
similar 339
voice 339
wind 339
ff@@ 338
head@@ 337
ke@@ 337
road 336
term 336
wal@@ 336
basic 335
groups 335
os 335
teachers 335
town 335
60 334
80 334
ad 334
ll@@ 334
month 334
break 333
pal@@ 333
issues 332
lines 332
several 332
syn@@ 332
towards 332
comp@@ 331
pac@@ 331
sel@@ 331
tells 331
ve@@ 331
asking 330
chance 330
evidence 330
involved 330
minute 330
mp@@ 330
activity 328
mil@@ 327
robot 327
dance 326
est@@ 326
onto 326
truth 326
anyway 325
asi@@ 325
ber 325
certainly 325
gue 325
ill 325
sounds 325
suddenly 325
ls 324
men@@ 324
projects 324
sil@@ 324
ther@@ 324
appe@@ 323
dec@@ 323
hiv 323
lar@@ 323
medi@@ 323
mission 323
strong 323
particularly 322
pas@@ 322
pattern 322
ped 322
wat@@ 322
ature 321
indeed 321
om 321
speed 321
ching 320
fire 320
formed 320
hit 320
impro@@ 320
mal@@ 320
ust 320
walking 320
clu@@ 319
fer 319
software 319
stay 319
wait 319
cin@@ 318
examples 318
ment@@ 318
listen 317
positive 317
vel@@ 317
add 316
nuclear 316
object 316
ready 316
wants 316
cations 315
prote@@ 315
brea@@ 314
enter@@ 314
everywhere 314
notice 314
whe@@ 314
list 313
message 313
send 313
spo@@ 313
talks 313
village 313
lea@@ 312
showing 312
cam@@ 311
college 311
moral 311
version 311
200 310
cause 310
code 310
gar@@ 310
pick 310
choice 309
econom@@ 309
google 309
peace 309
sit 309
follow 308
plants 308
teacher 308
sent 307
starts 307
tic@@ 307
ators 306
matic 306
potential 306
skin 306
biggest 305
bon@@ 305
democracy 305
ended 305
period 305
tives 305
ures 305
ative 304
esti@@ 304
exciting 304
measure 304
ner 304
plan 304
smart 304
student 304
further 303
pain@@ 303
reach 303
tun@@ 303
blo@@ 302
foot 302
fri@@ 302
indi@@ 302
lead 302
page 302
row 302
sig@@ 302
grand@@ 301
journey 301
song 301
ases 300
eth@@ 300
interest 300
uni@@ 300
ably 299
exc@@ 298
ler 298
ences 297
hospital 297
tal 297
totally 297
lose 296
ot 296
success 296
approach 295
bel@@ 295
develop 295
extraordinary 295
ill@@ 295
products 295
pul@@ 295
store 295
thousand 295
among 294
gas 294
jobs 294
recor@@ 294
z 294
african 293
alized 293
cian 293
eventually 293
mes 293
points 293
acc@@ 292
aging 292
grew 292
posed 292
buildings 291
camera 291
cent 291
ctive 291
extremely 291
largest 291
ore 291
results 291
essentially 290
ingly 290
medicine 290
named 290
standing 290
tically 290
ants 289
cultural 289
fir@@ 289
han@@ 289
und 289
visual 289
cru@@ 288
hop@@ 288
poverty 288
watching 288
fine 287
international 287
objects 287
older 287
organization 287
poli@@ 287
spread 287
yp@@ 287
smo@@ 286
continue 285
creative 285
square 285
sun@@ 285
arm 284
nor@@ 284
tat@@ 284
usually 284
david 283
fer@@ 283
higher 283
hy@@ 283
ren@@ 283
rich 283
tly 283
trees 283
11 282
18 282
500 282
brains 282
doctor 282
ini@@ 282
series 282
biology 281
drug 281
except 281
movie 281
pieces 281
vie@@ 281
electricity 280
larger 280
loo@@ 280
mic 280
regi@@ 280
ani@@ 279
dete@@ 279
expect 279
ey 279
ish 279
safe 279
somehow 279
somewhere 279
wards 279
cies 278
electr@@ 278
ession 278
mit@@ 278
screen 278
wed 278
serious 277
sex 277
thre@@ 277
ward 277
above 276
ages 276
impossible 276
minds 276
obser@@ 276
pe 276
sorts 276
taught 276
ots 275
plant 275
shot 275
ght 274
ow@@ 274
ral 274
traditional 274
18@@ 273
crazy 273
med 273
site 273
allowed 272
bro@@ 272
dent 272
ming 272
tree 272
yo@@ 272
ball 271
conditions 271
dou@@ 271
foot@@ 271
models 271
ony 271
supposed 271
bal@@ 270
den 270
individuals 270
meaning 270
upon 270
expensive 269
goal 269
leaders 269
mom 269
role 269
sto@@ 269
studies 269
touch 269
written 269
back@@ 268
bunch 268
favorite 268
shown 268
ta 268
training 268
belie@@ 267
conver@@ 267
crisis 267
finding 267
ran@@ 267
sell 267
ute 267
ak 266
architecture 266
complicated 266
ered 266
including 266
stat@@ 266
drugs 265
essi@@ 265
ner@@ 265
pers 265
perspective 265
stars 265
top@@ 265
truly 265
ast 264
cover 264
dream 264
fantastic 264
san@@ 264
tively 264
trust 264
income 263
production 263
provi@@ 263
seconds 263
ash 262
famous 262
faster 262
fla@@ 262
flu@@ 262
killed 262
mechan@@ 262
refle@@ 262
und@@ 262
wife 262
excited 261
faces 261
fli@@ 261
healthy 261
reading 261
rel@@ 261
sam@@ 261
therefore 261
tool 261
treatment 261
arch@@ 260
beauty 260
violence 260
win 260
bacteria 259
cen@@ 259
connect 259
hot 259
ines 259
range 259
sou@@ 259
sus@@ 259
fight 258
ically 258
main@@ 258
ries 258
sky 258
worse 258
ye@@ 258
communities 257
kill 257
military 257
mm@@ 257
alive 256
math 256
ops 256
pain 256
price 256
resi@@ 256
response 256
tin@@ 256
v 256
families 255
hon@@ 255
rise 255
sh 255
struc@@ 255
anti@@ 254
bodies 254
combin@@ 254
fundamental 254
fy 254
mal 254
vation 254
waste 254
ama@@ 253
himself 253
aff@@ 252
ah 252
ak@@ 252
cases 252
far@@ 252
flow 252
humanity 252
meant 252
neuro@@ 252
neurons 252
service 252
successful 252
western 252
content 251
dad 251
hey 251
kept 251
la 251
rele@@ 251
anywhere 250
physics 250
region 250
smaller 250
ster@@ 250
swi@@ 250
enti@@ 249
lies 249
throughout 249
tor 249
choose 248
context 248
conven@@ 248
freedom 248
patterns 248
tain 248
bul@@ 247
cep@@ 247
dog 247
ide@@ 247
person@@ 247
slow 247
zation 247
ach@@ 246
clearly 246
del@@ 246
eu@@ 246
exp@@ 246
ll 246
record 246
sum@@ 246
thanks 246
virus 246
beings 245
bing 245
demon@@ 245
dness 245
ed@@ 245
inclu@@ 245
skills 245
vari@@ 245
wel@@ 245
concept 244
decision 244
fro@@ 244
genes 244
lon@@ 244
policy 244
recognize 244
rights 244
treat 244
vent@@ 244
allows 243
although 243
central 243
depen@@ 243
down@@ 243
machines 243
pra@@ 243
strange 243
cle@@ 242
oc@@ 242
ton@@ 242
tou@@ 242
vely 242
actual 241
acy 241
contribu@@ 241
engineering 241
listening 241
magic 241
massive 241
win@@ 241
consi@@ 240
consider 240
ess@@ 240
familiar 240
fr@@ 240
liber@@ 240
mas@@ 240
nan@@ 240
plastic 240
solutions 240
aid 239
driving 239
earlier 239
fru@@ 239
press 239
pull 239
trade 239
all@@ 238
clean 238
gotten 238
hing 238
increase 238
ise 238
ited 238
pat@@ 238
print 238
rela@@ 238
waiting 238
ale 237
americans 237
ands 237
cl@@ 237
dat@@ 237
fuel 237
fun@@ 237
progress 237
tv 237
unded 237
weight 237
after@@ 236
musi@@ 236
photograph@@ 236
star 236
terri@@ 236
tivity 236
wonder 236
zes 236
cold 235
dollar 235
app@@ 234
costs 234
decisions 234
greater 234
hole 234
however 234
ils 234
john 234
ka@@ 234
museum 234
teaching 234
date 233
direction 233
forest 233
inst@@ 233
intelligence 233
lower 233
non@@ 233
provide 233
repres@@ 233
surgery 233
zen 233
artist 232
clin@@ 232
critical 232
cycle 232
exist 232
flying 232
glass 232
hal@@ 232
invented 232
legs 232
near 232
ods 232
protect 232
related 232
rule 232
tent 232
values 232
current 231
draw 231
edi@@ 231
fre@@ 231
liter@@ 231
president 231
remarkable 231
respon@@ 231
bre@@ 230
fore@@ 230
ian 230
irs 230
power@@ 230
ris@@ 230
robots 230
connection 229
diversity 229
effective 229
ese 229
im 229
poin@@ 229
ame 228
argu@@ 228
conc@@ 228
conversation 228
ray 228
religion 228
train 228
5,000 227
anymore 227
becoming 227
dangerous 227
explor@@ 227
floor 227
ft 227
pit@@ 227
sequence 227
forming 226
hea@@ 226
nation 226
none 226
politics 226
produ@@ 226
slide 226
unfortunately 226
conference 225
cou@@ 225
environmental 225
greatest 225
lations 225
new@@ 225
nur@@ 225
specific 225
subject 225
travel 225
198@@ 224
dge 224
following 224
function 224
ghts 224
gic 224
ham@@ 224
insi@@ 224
quar@@ 224
aware 223
bank 223
ben@@ 223
cians 223
docum@@ 223
ff 223
forces 223
ha 223
lin 223
post 223
private 223
raise 223
recogni@@ 223
repor@@ 223
thi@@ 223
understood 223
urban 223
walked 223
whose 223
babies 222
fis@@ 222
tho@@ 222
comm@@ 221
decade 221
disappe@@ 221
performance 221
psych@@ 221
reach@@ 221
services 221
website 221
70 220
forth 220
genetic 220
immediately 220
lights 220
scientist 220
ca 219
cent@@ 219
extra@@ 219
lands 219
practice 219
stick 219
temperature 219
assu@@ 218
co 218
gui@@ 218
lab@@ 218
mb 218
shu@@ 218
stre@@ 218
sustainable 218
wers 218
ately 217
original 217
types 217
90 216
conflict 216
conser@@ 216
divi@@ 216
enormous 216
final 216
funny 216
hi 216
histor@@ 216
lau@@ 216
police 216
various 216
weren 216
16 215
ant@@ 215
conclu@@ 215
fol@@ 215
forget 215
institutions 215
suff@@ 215
useful 215
ven 215
ahead 214
creativity 214
ets 214
hab@@ 214
loved 214
mean@@ 214
mp 214
produced 214
pun@@ 214
ration 214
scri@@ 214
speaking 214
survive 214
boys 213
consciousness 213
evolved 213
net 213
phones 213
que 213
ran 213
societies 213
thetic 213
alism 212
chemical 212
complete 212
directly 212
doctors 212
feed 212
heat 212
markets 212
mars 212
mot@@ 212
played 212
pol@@ 212
sharing 212
vic@@ 212
ads 211
bly 211
chair 211
inspired 211
networks 211
occu@@ 211
unique 211
birds 210
capit@@ 210
commit@@ 210
land@@ 210
meeting 210
path 210
sign 210
tex@@ 210
track 210
cher 209
gene 209
levels 209
pair 209
shared 209
television 209
vac@@ 209
agree 208
below 208
essed 208
experiments 208
grade 208
ley 208
recent 208
sat 208
scre@@ 208
summer 208
sy@@ 208
actions 207
aids 207
alization 207
cha@@ 207
classi@@ 207
entation 207
extra 207
fan@@ 207
ght@@ 207
ima@@ 207
industrial 207
lat@@ 207
matically 207
mobile 207
park 207
stance 207
val@@ 207
wir@@ 207
arts 206
bes@@ 206
bringing 206
chan@@ 206
discover 206
dom@@ 206
effects 206
fund@@ 206
ny 206
obvious 206
passion 206
qui@@ 206
search 206
shi@@ 206
some@@ 206
sorry 206
governments 205
helped 205
mer 205
mostly 205
oni@@ 205
photograph 205
career 204
dig@@ 204
na 204
publi@@ 204
thro@@ 204
tre@@ 204
bill 203
cure 203
dest 203
focused 203
genome 203
instance 203
london 203
moon 203
possibly 203
task 203
workers 203
ancient 202
ass 202
destro@@ 202
drop 202
ek 202
era 202
expected 202
financial 202
indian 202
ing@@ 202
mes@@ 202
ple 202
push 202
stream 202
surro@@ 202
vol@@ 202
biological 201
chi@@ 201
circu@@ 201
diagno@@ 201
domin@@ 201
eating 201
explore 201
gh 201
purpose 201
afghanistan 200
attra@@ 200
challenges 200
fit 200
island 200
multi@@ 200
ologists 200
terrible 200
twice 200
birth 199
causes 199
complexity 199
lan@@ 199
mel@@ 199
pris@@ 199
quick 199
shor@@ 199
sor@@ 199
straight 199
tail 199
300 198
agre@@ 198
bought 198
daughter 198
decide 198
dr. 198
ological 198
paid 198
was@@ 198
zo@@ 198
ased 197
ep 197
etc 197
explo@@ 197
ky 197
radi@@ 197
turning 197
14 196
capacity 196
capital 196
closer 196
efficient 196
emotional 196
mat@@ 196
ping 196
pressure 196
secret 196
shed 196
sleep 196
stone 196
tac@@ 196
uring 196
carry 195
character 195
chris 195
communication 195
diseases 195
exten@@ 195
green@@ 195
onic 195
reali@@ 195
ss 195
willing 195
dist@@ 194
dre@@ 194
dy@@ 194
ear@@ 194
eli@@ 194
ell 194
fron@@ 194
mark 194
ror 194
spending 194
audi@@ 193
dea@@ 193
decades 193
event 193
exi@@ 193
fle@@ 193
ken 193
laws 193
ory 193
pass 193
spe@@ 193
vot@@ 193
atmosphere 192
designers 192
dying 192
memory 192
party 192
rock 192
worry 192
acting 191
answers 191
balance 191
bits 191
leg@@ 191
published 191
rema@@ 191
slightly 191
temp@@ 191
trouble 191
$ 190
accu@@ 190
artists 190
charge 190
degrees 190
ency 190
glo@@ 190
ial 190
plan@@ 190
popular 190
pp@@ 190
surprising 190
analy@@ 189
bird 189
enting 189
flies 189
hol@@ 189
molecules 189
mul@@ 189
spec@@ 189
supply 189
tas@@ 189
wood 189
infrastructure 188
predic@@ 188
sau@@ 188
standard 188
vering 188
yers 188
10,000 187
24 187
ash@@ 187
break@@ 187
hr@@ 187
illu@@ 187
ours 187
race 187
significant 187
tele@@ 187
teri@@ 187
trial 187
ue 187
broken 186
california 186
cate 186
citizens 186
const@@ 186
demo@@ 186
fortun@@ 186
fying 186
hearing 186
stances 186
tt@@ 186
achie@@ 185
creates 185
devices 185
neu@@ 185
text 185
tissue 185
yer 185
address 184
apart 184
crimin@@ 184
dep@@ 184
descri@@ 184
gri@@ 184
lets 184
oxygen 184
spa@@ 184
speci@@ 184
sphere 184
visu@@ 184
check 183
coffee 183
edge 183
eding 183
emer@@ 183
nations 183
q@@ 183
radio 183
shel@@ 183
tremendous 183
ular 183
ening 182
glob@@ 182
ie@@ 182
improve 182
sac@@ 182
wei@@ 182
worst 182
ambi@@ 181
blind 181
bom@@ 181
corner 181
flight 181
hed 181
lie 181
meters 181
noticed 181
richard 181
sla@@ 181
tar@@ 181
techni@@ 181
travel@@ 181
197@@ 180
asia 180
auto@@ 180
collabor@@ 180
differences 180
hair 180
highly 180
hom@@ 180
human@@ 180
memor@@ 180
ority 180
rain 180
repe@@ 180
stration 180
ards 179
calls 179
graph 179
law@@ 179
meter 179
ought 179
passed 179
pli@@ 179
process@@ 179
sch@@ 179
studying 179
&apos;@@ 178
1,000 178
basis 178
dence 178
educ@@ 178
electric 178
gate 178
limit@@ 178
seemed 178
structures 178
sym@@ 178
tially 178
tle 178
argument 177
cious 177
helping 177
hun@@ 177
mountain 177
planets 177
programs 177
repli@@ 177
rooms 177
total 177
ables 176
civil 176
din@@ 176
ering 176
fig@@ 176
fix 176
frequ@@ 176
kil@@ 176
meas@@ 176
nearly 176
notion 176
organi@@ 176
our@@ 176
profit 176
roll@@ 176
sand 176
suppor@@ 176
vor@@ 176
acade@@ 175
accep@@ 175
arb@@ 175
boat 175
condition 175
feels 175
flu 175
foundation 175
giant 175
justice 175
ko@@ 175
log@@ 175
ordin@@ 175
return 175
sle@@ 175
assem@@ 174
communicate 174
farmers 174
ignor@@ 174
inner 174
musli@@ 174
painting 174
phenomenon 174
prison 174
responsibility 174
sely 174
shift 174
thes@@ 174
yellow 174
bil@@ 173
colleagues 173
colors 173
cross 173
easily 173
figured 173
imagination 173
organisms 173
possibility 173
pounds 173
pr@@ 173
stors 173
window 173
13 172
arti@@ 172
attack 172
bran@@ 172
centi@@ 172
choices 172
core 172
definition 172
ells 172
fair 172
invol@@ 172
knowing 172
lam@@ 172
landscape 172
mming 172
reduce 172
streets 172
tab@@ 172
tory 172
ath@@ 171
bla@@ 171
corpo@@ 171
dimensional 171
eng@@ 171
iraq 171
necessarily 171
pus@@ 171
religious 171
achieve 170
bt 170
infe@@ 170
plac@@ 170
relationships 170
stopped 170
1.@@ 169
accoun@@ 169
afraid 169
aspe@@ 169
blin@@ 169
cas@@ 169
comfortable 169
direc@@ 169
discovery 169
diver@@ 169
extin@@ 169
fication 169
identi@@ 169
interact 169
join 169
mani@@ 169
organizations 169
ous@@ 169
particles 169
prize 169
reg@@ 169
slo@@ 169
algorith@@ 168
benefits 168
bility 168
distin@@ 168
fairly 168
finished 168
gor@@ 168
iled 168
lying 168
opportunities 168
pin@@ 168
ra 168
reve@@ 168
ring 168
soli@@ 168
stron@@ 168
work@@ 168
ance@@ 167
architec@@ 167
bled 167
bone 167
brings 167
conne@@ 167
designer 167
hero@@ 167
hum@@ 167
leading 167
leads 167
mid 167
missing 167
mix@@ 167
moments 167
ne 167
pose 167
respect 167
river 167
saving 167
throw 167
wan@@ 167
bridge 166
dents 166
despite 166
differently 166
ends 166
engine 166
held 166
ine@@ 166
japan 166
load 166
mur@@ 166
necessary 166
neighbor@@ 166
puzz@@ 166
sites 166
ten 166
ultimately 166
ack@@ 165
ank 165
benefit 165
bers 165
cial 165
consu@@ 165
consum@@ 165
engage 165
expec@@ 165
fs 165
iran 165
ken@@ 165
organic 165
rain@@ 165
russi@@ 165
surge@@ 165
tations 165
tech 165
thy 165
wild 165
arian 164
attac@@ 164
attemp@@ 164
communic@@ 164
covered 164
electro@@ 164
ina 164
ists 164
logi@@ 164
lucky 164
noise 164
nutri@@ 164
operation 164
sick 164
sol@@ 164
stem 164
wide 164
wil@@ 164
apply 163
appreci@@ 163
bot@@ 163
bread 163
brilliant 163
competition 163
double 163
female 163
forever 163
ily 163
influence 163
mc@@ 163
members 163
ney 163
note 163
ples 163
shares 163
tain@@ 163
wee@@ 163
antly 162
bling 162
compu@@ 162
creatures 162
extreme 162
jun@@ 162
ologist 162
ong 162
oth 162
passionate 162
scen@@ 162
cation 161
cle 161
coast 161
distance 161
effort 161
elements 161
emotions 161
expla@@ 161
fascinating 161
fashion 161
fold 161
foreign 161
fur@@ 161
gical 161
mr. 161
nar@@ 161
professor 161
resol@@ 161
rou@@ 161
sculp@@ 161
symme@@ 161
visit 161
whi@@ 161
adop@@ 160
calcu@@ 160
cheap 160
conscious 160
contra@@ 160
custom@@ 160
engineers 160
enter 160
fields 160
gun 160
lesson 160
lic@@ 160
mathematics 160
motion 160
mouse 160
port 160
report 160
tial 160
ble@@ 159
british 159
calcul@@ 159
card 159
cir@@ 159
degree 159
emplo@@ 159
hei@@ 159
moves 159
negative 159
plo@@ 159
puts 159
raised 159
tures 159
typical 159
vor 159
adap@@ 158
afford 158
bac@@ 158
block 158
civilization 158
compar@@ 158
engineer 158
fighting 158
french 158
gene@@ 158
gradu@@ 158
hopefully 158
j 158
pic@@ 158
profound 158
quote 158
recei@@ 158
slowly 158
trained 158
brand 157
capable 157
cide 157
circle 157
dd@@ 157
facebook 157
hel@@ 157
high@@ 157
journ@@ 157
measu@@ 157
sity 157
suffering 157
supp@@ 157
tan 157
walls 157
wisdom 157
wonder@@ 157
1,@@ 156
aci@@ 156
activ@@ 156
agriculture 156
alize 156
cell@@ 156
fill 156
gly 156
holding 156
importantly 156
laun@@ 156
loss 156
mothers 156
responsible 156
sold 156
station 156
traffic 156
unt 156
base 155
bees 155
begins 155
desert 155
everyday 155
filled 155
helps 155
kee@@ 155
meat 155
photo 155
respond 155
san 155
sector 155
virtu@@ 155
zz@@ 155
adults 154
concent@@ 154
consumption 154
contro@@ 154
crime 154
describe 154
deser@@ 154
easier 154
evol@@ 154
factory 154
fif@@ 154
heads 154
matters 154
modi@@ 154
plus 154
reas@@ 154
rein@@ 154
sets 154
statistics 154
titude 154
196@@ 153
400 153
aling 153
billions 153
breast 153
carto@@ 153
catch 153
constru@@ 153
dry 153
impli@@ 153
ishing 153
legal 153
ners 153
promise 153
steps 153
u.@@ 153
van@@ 153
virtual 153
wave 153
brother 152
caught 152
ception 152
concep@@ 152
dem@@ 152
eri@@ 152
events 152
experiences 152
identity 152
invest 152
operating 152
pengu@@ 152
powered 152
ried 152
seriously 152
shouldn 152
sister 152
speech 152
tal@@ 152
tured 152
vast 152
vement 152
background 151
ear 151
embra@@ 151
ful@@ 151
hat@@ 151
invest@@ 151
normally 151
sis 151
sudden 151
suit 151
tting 151
wer@@ 151
17 150
arms 150
cham@@ 150
dolph@@ 150
facili@@ 150
func@@ 150
kl@@ 150
leaving 150
male 150
occur@@ 150
offer 150
reser@@ 150
see@@ 150
simpli@@ 150
speak@@ 150
warming 150
arc@@ 149
cele@@ 149
creation 149
economics 149
equal 149
inci@@ 149
inno@@ 149
labor 149
magazine 149
opposite 149
peri@@ 149
roll 149
shop 149
spring 149
ur 149
vel 149
acceler@@ 148
campaign 148
concerned 148
count 148
determin@@ 148
galaxy 148
gon@@ 148
gos 148
impres@@ 148
mates 148
otherwise 148
placed 148
predict 148
therapy 148
versus 148
ales 147
compe@@ 147
deeply 147
due 147
enjoy 147
entirely 147
expres@@ 147
fal@@ 147
fourth 147
gentle@@ 147
ghten@@ 147
intelligent 147
investment 147
invisible 147
jump 147
languages 147
link 147
nam@@ 147
ored 147
ories 147
quie@@ 147
rid 147
separ@@ 147
spirit 147
studied 147
theater 147
according 146
agen@@ 146
belief 146
dreams 146
exper@@ 146
failure 146
happ@@ 146
horri@@ 146
lack 146
mouth 146
perfectly 146
philosop@@ 146
principles 146
prof@@ 146
protein 146
signal 146
spaces 146
2,000 145
addi@@ 145
allo@@ 145
article 145
beat 145
believed 145
cloud 145
dom 145
driven 145
ep@@ 145
ference 145
gation 145
gras@@ 145
home@@ 145
insects 145
int 145
limited 145
oceans 145
opened 145
paint 145
paul 145
ressed 145
spon@@ 145
tens 145
thinks 145
wear 145
wow 145
argue 144
bab@@ 144
co2 144
depression 144
grown 144
hate 144
ites 144
majority 144
molecule 144
posi@@ 144
professional 144
stuck 144
sy 144
tomorrow 144
transform 144
ury 144
xi@@ 144
ams 143
atta@@ 143
childhood 143
counter@@ 143
distribu@@ 143
fellow 143
followed 143
galaxies 143
mexico 143
obs@@ 143
opini@@ 143
photos 143
principle 143
surprise 143
tter@@ 143
ves@@ 143
wealth 143
ace 142
airplane 142
bin@@ 142
challen@@ 142
closed 142
constantly 142
damage 142
evil 142
habit@@ 142
infin@@ 142
managed 142
monit@@ 142
oli@@ 142
predi@@ 142
soil 142
sum 142
super 142
tumor 142
bear 141
bus@@ 141
cers 141
commercial 141
compare 141
compli@@ 141
debate 141
deliver 141
designing 141
desire 141
dinner 141
intervie@@ 141
invi@@ 141
israel 141
keeping 141
sensor@@ 141
survival 141
thir@@ 141
toward 141
transpor@@ 141
universal 141
val 141
viruses 141
weapons 141
advantage 140
atures 140
coal 140
cont@@ 140
disco@@ 140
finger 140
generate 140
heli@@ 140
hell 140
husband 140
institute 140
investi@@ 140
jud@@ 140
jum@@ 140
ka 140
kid@@ 140
match 140
ol 140
opening 140
organized 140
pages 140
ph 140
plane 140
proud 140
rob@@ 140
robo@@ 140
rural 140
separate 140
spre@@ 140
vote 140
whenever 140
yesterday 140
45 139
apple 139
bar 139
care@@ 139
charles 139
compared 139
define 139
dynamic 139
electrical 139
end@@ 139
european 139
exhi@@ 139
hidden 139
hin@@ 139
increasingly 139
ite 139
ordinary 139
transpar@@ 139
ty@@ 139
unless 139
volunte@@ 139
washington 139
wearing 139
cular 138
di 138
email 138
enty 138
facts 138
failed 138
gan@@ 138
graduate 138
gry 138
independent 138
letter 138
lic 138
metaphor 138
not@@ 138
participa@@ 138
pathy 138
pher@@ 138
planning 138
shif@@ 138
stin@@ 138
strate 138
wake 138
weird 138
20th 137
ading 137
affect 137
apo@@ 137
ast@@ 137
bles 137
church 137
cognitive 137
farm 137
ior 137
mini@@ 137
prevent 137
prob@@ 137
prototyp@@ 137
random 137
sar@@ 137
secre@@ 137
subje@@ 137
treated 137
tural 137
voices 137
actor 136
approach@@ 136
corruption 136
currently 136
drawing 136
explan@@ 136
gather@@ 136
harder 136
highest 136
losing 136
mile 136
paying 136
shoes 136
ang@@ 135
circum@@ 135
classroom 135
construction 135
cortex 135
duc@@ 135
exists 135
gas@@ 135
ills 135
interaction 135
multiple 135
neighborhood 135
practic@@ 135
proje@@ 135
seat 135
shapes 135
spot 135
sub 135
succe@@ 135
tis@@ 135
tough 135
whom 135
worldwide 135
appro@@ 134
caused 134
collective 134
connec@@ 134
dies 134
distribution 134
heavy 134
imm@@ 134
keys 134
mus@@ 134
narra@@ 134
partici@@ 134
tran@@ 134
tter 134
vehicle 134
100,000 133
cer 133
continent 133
dimensions 133
equivalent 133
ery 133
houses 133
hur@@ 133
interven@@ 133
layer 133
malaria 133
muscle 133
optimi@@ 133
plu@@ 133
sen 133
telescop@@ 133
toi@@ 133
ution 133
va 133
vable 133
vege@@ 133
weather 133
worried 133
cans 132
chemistry 132
consequences 132
counter 132
described 132
detail 132
ert 132
fix@@ 132
gain 132
gling 132
gran@@ 132
graph@@ 132
leader 132
mag@@ 132
married 132
microscop@@ 132
preser@@ 132
scan@@ 132
seas@@ 132
signals 132
smell 132
thesis 132
transl@@ 132
vice 132
waves 132
wr@@ 132
ach 131
ack 131
acts 131
appear 131
artificial 131
blu@@ 131
businesses 131
cated 131
clim@@ 131
copy 131
emotion 131
experts 131
free@@ 131
gen 131
generations 131
gold 131
ham 131
hasn 131
honest 131
interface 131
joy 131
leaves 131
mentioned 131
names 131
negoti@@ 131
ough 131
pet 131
pon@@ 131
producing 131
progra@@ 131
remote 131
roman@@ 131
suppose 131
survi@@ 131
threat 131
unding 131
abilities 130
activi@@ 130
ana 130
britain 130
characteri@@ 130
colum@@ 130
contr@@ 130
cros@@ 130
department 130
discipl@@ 130
einstein 130
ene@@ 130
expression 130
fat 130
grandmother 130
holes 130
ii 130
invited 130
mortality 130
oned 130
rational 130
sad 130
sna@@ 130
thri@@ 130
wit@@ 130
ade 129
anima@@ 129
bit@@ 129
cis@@ 129
direct 129
eleph@@ 129
fell 129
friend@@ 129
hypo@@ 129
incre@@ 129
japanese 129
kan@@ 129
lady 129
leadership 129
lunch 129
pop 129
represent 129
shoul@@ 129
stac@@ 129
strategy 129
tam@@ 129
teen@@ 129
youn@@ 129
,@@ 128
35 128
anti 128
bright 128
camp 128
christ@@ 128
collect 128
depres@@ 128
dinosaurs 128
emerging 128
geni@@ 128
gul@@ 128
influ@@ 128
michael 128
movies 128
nei@@ 128
northern 128
percei@@ 128
roughly 128
section 128
soldiers 128
stands 128
valley 128
3d 127
amp 127
appar@@ 127
aring 127
associated 127
awful 127
band 127
chain 127
chemicals 127
cially 127
contact 127
cutting 127
dan 127
develop@@ 127
isi@@ 127
jac@@ 127
letters 127
mid@@ 127
minister 127
pleasure 127
poor@@ 127
rates 127
sm@@ 127
tin 127
violent 127
wea@@ 127
abstra@@ 126
alists 126
ba 126
chap@@ 126
daily 126
ements 126
equipment 126
hall 126
heal@@ 126
inte@@ 126
lec@@ 126
maker 126
mod@@ 126
offi@@ 126
proce@@ 126
qua@@ 126
sim@@ 126
steel 126
stran@@ 126
stro@@ 126
tch 126
ts@@ 126
ab 125
appli@@ 125
australia 125
battery 125
coral 125
dealing 125
diet 125
disaster 125
ere 125
essential 125
feelings 125
forced 125
garden 125
homes 125
killing 125
launched 125
leg 125
lessons 125
nant 125
nervous 125
pre 125
promis@@ 125
rus@@ 125
scene 125
sever@@ 125
sexual 125
tt 125
3,000 124
accident 124
announ@@ 124
canada 124
democratic 124
details 124
ero@@ 124
gli@@ 124
grand 124
graphic 124
importance 124
jan@@ 124
pes 124
practical 124
resource 124
setting 124
simul@@ 124
stery 124
surprised 124
teeth 124
yle 124
categ@@ 123
clinical 123
conf@@ 123
embar@@ 123
emergen@@ 123
establi@@ 123
feedback 123
ir 123
molecular 123
oning 123
orders 123
orig@@ 123
pole 123
prime 123
round 123
sele@@ 123
sight 123
skelet@@ 123
sty 123
technical 123
thoughts 123
tles 123
trials 123
trip 123
yl@@ 123
affected 122
army 122
ath 122
avoid 122
box@@ 122
broad@@ 122
brown 122
budget 122
celebra@@ 122
craft 122
demand 122
elling 122
enjo@@ 122
fall@@ 122
george 122
intellectual 122
ize 122
kenya 122
library 122
master 122
motiv@@ 122
od 122
oral 122
path@@ 122
player 122
quali@@ 122
red@@ 122
regular 122
selling 122
sl@@ 122
small@@ 122
spectrum 122
sugar 122
union 122
warm 122
wings 122
adult 121
angle 121
chr@@ 121
controlled 121
cultures 121
effectively 121
gal@@ 121
hadn 121
inning 121
ison 121
james 121
kilometers 121
kno@@ 121
len@@ 121
mix 121
mountains 121
occasi@@ 121
ols 121
preg@@ 121
property 121
researchers 121
target 121
users 121
wine 121
wra@@ 121
wri@@ 121
150 120
account 120
addition 120
advan@@ 120
alternative 120
bush 120
butt@@ 120
cards 120
clou@@ 120
condu@@ 120
conduc@@ 120
ct@@ 120
ctor 120
diam@@ 120
england 120
ests 120
evolutionary 120
facing 120
flat 120
frank@@ 120
ight 120
inf@@ 120
jer@@ 120
management 120
metal 120
nigeria 120
osity 120
phil@@ 120
pil@@ 120
players 120
pleas@@ 120
shir@@ 120
smar@@ 120
spoke 120
stics 120
thers 120
zon 120
aming 119
analysis 119
aries 119
boo@@ 119
bus 119
clock 119
considered 119
cour@@ 119
crowd 119
drink 119
empty 119
existence 119
insu@@ 119
ly@@ 119
mathematical 119
mented 119
radical 119
reaction 119
reci@@ 119
relevant 119
requi@@ 119
ritual 119
rock@@ 119
sources 119
status 119
studio 119
tox@@ 119
van 119
50,000 118
bo 118
controll@@ 118
curious 118
dio@@ 118
encoura@@ 118
gely 118
gles 118
gravity 118
horse 118
intern@@ 118
liked 118
magnetic 118
nasa 118
ome 118
phi@@ 118
play@@ 118
possibilities 118
prove 118
ption 118
roots 118
solved 118
specifically 118
spli@@ 118
stood 118
techniques 118
underneath 118
ung@@ 118
user 118
visi@@ 118
wars 118
whereas 118
2008 117
advanced 117
arrived 117
atory 117
breath 117
chicken 117
connections 117
definitely 117
dots 117
edu@@ 117
exchange 117
faith 117
finish 117
folks 117
guar@@ 117
hero 117
hes 117
honor 117
inti@@ 117
intui@@ 117
magni@@ 117
makers 117
marine 117
partner 117
ple@@ 117
radiation 117
sharks 117
suggest@@ 117
suggests 117
testing 117
tons 117
ug@@ 117
99 116
absolute 116
affec@@ 116
atom@@ 116
calling 116
cape 116
click 116
eline 116
experienced 116
fossil 116
gap 116
goals 116
ish@@ 116
ladies 116
milli@@ 116
nor 116
operate 116
organs 116
perception 116
platform 116
productive 116
respe@@ 116
saved 116
secon@@ 116
shall 116
stock 116
switch 116
transformation 116
transition 116
unds 116
wire 116
yo 116
aled 115
bed@@ 115
buying 115
by@@ 115
characters 115
chri@@ 115
cil 115
deeper 115
ef@@ 115
ember 115
emissions 115
factor 115
fail 115
fresh 115
fundament@@ 115
increasing 115
invention 115
kitchen 115
los 115
method 115
miss 115
newspaper 115
photographs 115
picked 115
portra@@ 115
processes 115
reli@@ 115
sides 115
silk 115
son@@ 115
theme 115
trick 115
valuable 115
via 115
75 114
aded 114
amo@@ 114
ans@@ 114
awareness 114
beach 114
breaking 114
cker 114
credit 114
defined 114
efficiency 114
epidemic 114
express 114
gift 114
hit@@ 114
marriage 114
ogra@@ 114
privi@@ 114
safety 114
satis@@ 114
suggest 114
tane@@ 114
tered 114
thomas 114
twitter 114
ush 114
variety 114
writer 114
accept 113
adverti@@ 113
architect 113
axis 113
brothers 113
centers 113
convince 113
darwin 113
fewer 113
iden@@ 113
illness 113
kar@@ 113
laptop 113
marketing 113
ologi@@ 113
patent 113
primary 113
ras@@ 113
ress 113
restaurant 113
scot@@ 113
shar@@ 113
ships 113
stable 113
thin@@ 113
tradition 113
admini@@ 112
artic@@ 112
bine 112
birth@@ 112
coura@@ 112
deter@@ 112
dogs 112
driver 112
explains 112
grid 112
identify 112
lifetime 112
liquid 112
pacific 112
rare 112
rene@@ 112
reward 112
sentence 112
spir@@ 112
tradi@@ 112
typically 112
videos 112
wise 112
ate@@ 111
atri@@ 111
ballo@@ 111
battle 111
bia 111
boundar@@ 111
carefully 111
cents 111
cky 111
dynam@@ 111
ecosystem 111
ength 111
exercise 111
frame 111
fund 111
harvard 111
industri@@ 111
inse@@ 111
mention 111
prepared 111
protection 111
rect 111
relatively 111
ride 111
sett@@ 111
spor@@ 111
struggle 111
stupid 111
winter 111
wired 111
wondering 111
zi@@ 111
195@@ 110
21st 110
anding 110
art@@ 110
astronom@@ 110
atlan@@ 110
bee@@ 110
broke 110
components 110
contin@@ 110
convinced 110
eric 110
former 110
intri@@ 110
islam@@ 110
lock 110
mark@@ 110
member 110
onal 110
ord@@ 110
paraly@@ 110
plays 110
require 110
requires 110
sending 110
serve 110
tries 110
trillion 110
ze@@ 110
zone 110
appropriate 109
associ@@ 109
bang 109
bubble 109
clas@@ 109
ctors 109
eff@@ 109
employees 109
fire@@ 109
fishing 109
generally 109
germany 109
graphi@@ 109
lay 109
manage 109
maps 109
medium 109
motor 109
nat@@ 109
notes 109
planes 109
politicians 109
previous 109
rescu@@ 109
rup@@ 109
senses 109
sophisticated 109
steve 109
swim 109
tax@@ 109
unit 109
unts 109
villa@@ 109
vulnerable 109
200@@ 108
600 108
ange@@ 108
behaviors 108
berg 108
blocks 108
bottle 108
brazil 108
bru@@ 108
carrying 108
chimpanze@@ 108
civili@@ 108
cooking 108
crash 108
dent@@ 108
destruction 108
dow 108
environments 108
gay 108
goods 108
iling 108
imag@@ 108
ingre@@ 108
introduced 108
licen@@ 108
milk 108
noon 108
paradig@@ 108
percent@@ 108
personally 108
poetry 108
rapi@@ 108
religi@@ 108
roads 108
sages 108
strength 108
stry 108
style 108
ternal 108
tom@@ 108
trage@@ 108
wid@@ 108
windows 108
aten 107
cat 107
consumer 107
discussion 107
drin@@ 107
eastern 107
fail@@ 107
gam@@ 107
gest 107
inevi@@ 107
instrument 107
ished 107
kers 107
location 107
pollution 107
properties 107
proteins 107
que@@ 107
redu@@ 107
replace 107
represents 107
situations 107
solving 107
tains 107
u.k. 107
unusual 107
watched 107
af@@ 106
alist 106
aston@@ 106
atoms 106
behavi@@ 106
cational 106
collaboration 106
form@@ 106
gressi@@ 106
hip 106
introduce 106
key@@ 106
mira@@ 106
movements 106
naturally 106
need@@ 106
orche@@ 106
raising 106
received 106
reven@@ 106
roof 106
runs 106
sav@@ 106
sensitive 106
sor 106
strated 106
sustain@@ 106
tests 106
twi@@ 106
ums 106
asks 105
collapse 105
computing 105
director 105
earth@@ 105
encourage 105
exploration 105
gall@@ 105
gest@@ 105
gover@@ 105
healthcare 105
mirror 105
mistake 105
mistakes 105
piano 105
psychology 105
pulled 105
remin@@ 105
risks 105
sky@@ 105
tables 105
temporary 105
treat@@ 105
unlike 105
vin@@ 105
volu@@ 105
wikipedia 105
acci@@ 104
added 104
applied 104
arri@@ 104
blan@@ 104
burn 104
capture 104
cau@@ 104
coo@@ 104
cro 104
curi@@ 104
entrepreneurs 104
frame@@ 104
grain 104
hot@@ 104
hyper@@ 104
laugh@@ 104
lou@@ 104
mas 104
mol@@ 104
nity 104
pack 104
peak 104
predat@@ 104
quantum 104
robert 104
satellite 104
shark 104
singing 104
stress 104
string 104
stru@@ 104
terror@@ 104
treating 104
verage 104
virg@@ 104
0 103
2000 103
arr@@ 103
ball@@ 103
bay 103
bet 103
burning 103
cab@@ 103
cameras 103
crete 103
depends 103
display 103
eful 103
eller 103
hits 103
holds 103
hospitals 103
hydrogen 103
infected 103
isol@@ 103
laboratory 103
mathemati@@ 103
mr@@ 103
remem@@ 103
reti@@ 103
ridi@@ 103
smile 103
southern 103
stu@@ 103
technological 103
tem@@ 103
thes 103
umin@@ 103
upper 103
visible 103
youtube 103
ai@@ 102
arily 102
asing 102
bel 102
bomb 102
confidence 102
dam@@ 102
dered 102
fake 102
ferti@@ 102
francisco 102
hotel 102
obje@@ 102
pants 102
rand@@ 102
reverse 102
sir 102
taste 102
tings 102
ulti@@ 102
17@@ 101
aro@@ 101
caus@@ 101
ckets 101
defense 101
dish 101
eland 101
exam@@ 101
fascin@@ 101
fran@@ 101
gdp 101
hil@@ 101
house@@ 101
ids 101
islam 101
john@@ 101
mush@@ 101
passi@@ 101
poten@@ 101
quanti@@ 101
sex@@ 101
spac@@ 101
tape 101
tate 101
than@@ 101
tom 101
absor@@ 100
autonom@@ 100
bow 100
colli@@ 100
comfort 100
deci@@ 100
govern@@ 100
males 100
mand@@ 100
open@@ 100
oting 100
phr@@ 100
resear@@ 100
rus 100
sees 100
tracking 100
worl@@ 100
xide 100
arab@@ 99
cast 99
harv@@ 99
inspiration 99
institution 99
integr@@ 99
organ 99
phenomen@@ 99
post@@ 99
propor@@ 99
relative 99
susta@@ 99
swa@@ 99
tim 99
tual 99
.com 98
10@@ 98
2007 98
aug@@ 98
aw@@ 98
bag 98
blog 98
court 98
dur@@ 98
element 98
falls 98
gress 98
manufacturing 98
pakistan 98
phili@@ 98
2010 97
competi@@ 97
comple@@ 97
dun@@ 97
ecu@@ 97
flexi@@ 97
ghting 97
gla@@ 97
hurt 97
increas@@ 97
innovative 97
inspi@@ 97
partners 97
soci@@ 97
stun@@ 97
venture 97
wher@@ 97
ami 96
assi@@ 96
astero@@ 96
atten@@ 96
c. 96
fabri@@ 96
ghter 96
origin@@ 96
pay@@ 96
polio 96
queen 96
recycl@@ 96
simil@@ 96
staf@@ 96
thin 96
tribu@@ 96
who@@ 96
boston 95
designs 95
fit@@ 95
mad 95
nap@@ 95
plans 95
rop@@ 95
survey 95
syste@@ 95
teams 95
ti 95
tw@@ 95
u.n. 95
21 94
ay 94
dir@@ 94
discus@@ 94
enga@@ 94
gang 94
golden 94
instruments 94
ium 94
metho@@ 94
option 94
perman@@ 94
pollen 94
resili@@ 94
restri@@ 94
sper@@ 94
stant 94
12@@ 93
2.@@ 93
alt 93
clip 93
esses 93
gent 93
gy@@ 93
ier 93
imple@@ 93
lifest@@ 93
mysteri@@ 93
opp@@ 93
oud 93
poly@@ 93
proto@@ 93
rab@@ 93
rat@@ 93
sa 93
spar@@ 93
tili@@ 93
toler@@ 93
tube 93
vehi@@ 93
che 92
copy@@ 92
defe@@ 92
films 92
foc@@ 92
gps 92
inje@@ 92
iting 92
pen 92
stan@@ 92
strug@@ 92
tie 92
une 92
uss 92
ya 92
ye 92
ada@@ 91
archi@@ 91
bike 91
bun@@ 91
channel 91
confli@@ 91
cool@@ 91
fau@@ 91
philosoph@@ 91
som@@ 91
stian 91
success@@ 91
wes@@ 91
afri@@ 90
bee 90
bene@@ 90
bin 90
compon@@ 90
dings 90
elimin@@ 90
ford 90
genom@@ 90
hood 90
navi@@ 90
nose 90
sahar@@ 90
sal 90
september 90
tee 90
trin@@ 90
ual 90
15@@ 89
ai 89
ain 89
bert 89
chicago 89
diagra@@ 89
ee@@ 89
elec@@ 89
entrepr@@ 89
gender 89
gration 89
lun@@ 89
mom@@ 89
peer 89
rhyth@@ 89
scan 89
scop@@ 89
scrat@@ 89
spra@@ 89
stent 89
19 88
blog@@ 88
clever 88
fan 88
feder@@ 88
ili@@ 88
lake 88
multi 88
automo@@ 87
buil@@ 87
ela 87
epi@@ 87
ern 87
essen@@ 87
gment 87
haiti 87
iphone 87
las@@ 87
less@@ 87
phase 87
prepar@@ 87
roo@@ 87
sue 87
tour 87
appl@@ 86
bucks 86
certain@@ 86
chip 86
curr@@ 86
gates 86
korea 86
sequ@@ 86
tra 86
trend 86
uns@@ 86
2005 85
amin@@ 85
ania 85
budd@@ 85
ex 85
glas@@ 85
got@@ 85
hell@@ 85
instin@@ 85
interpre@@ 85
nee 85
obama 85
op 85
partner@@ 85
songs 85
surpris@@ 85
wand@@ 85
65 84
bacteri@@ 84
bat 84
brow@@ 84
cyber@@ 84
exponenti@@ 84
grab 84
hill 84
lung 84
manufac@@ 84
nel@@ 84
ooh 84
paris 84
pharma@@ 84
photo@@ 84
repu@@ 84
sign@@ 84
spin@@ 84
standards 84
stit@@ 84
web@@ 84
wis@@ 84
you@@ 84
za 84
fab@@ 83
fusion 83
hen@@ 83
input 83
interest@@ 83
ku@@ 83
ord 83
organis@@ 83
peter 83
ser 83
soft 83
tz@@ 83
00 82
22 82
autis@@ 82
bi 82
dh 82
ethi@@ 82
hunger 82
hydro@@ 82
kins 82
nest 82
one@@ 82
origami 82
partic@@ 82
uns 82
za@@ 82
add@@ 81
adi@@ 81
ager 81
cock@@ 81
collap@@ 81
crea@@ 81
cus 81
frank 81
ims 81
indu@@ 81
journalist 81
kni@@ 81
nets 81
port@@ 81
refer@@ 81
regu@@ 81
relation 81
agenda 80
angel@@ 80
any@@ 80
crow@@ 80
dop@@ 80
illegal 80
interview 80
ket 80
ki 80
mon 80
parallel 80
rich@@ 80
sensi@@ 80
sent@@ 80
texas 80
vered 80
yn 80
2009 79
adam 79
ank@@ 79
bell 79
citi@@ 79
club 79
dor@@ 79
eco@@ 79
ern@@ 79
fic@@ 79
forma@@ 79
kill@@ 79
lot@@ 79
max@@ 79
pool 79
prop@@ 79
psychi@@ 79
pyra@@ 79
sage 79
silicon 79
statisti@@ 79
stimul@@ 79
symptom@@ 79
tag 79
tes@@ 79
uganda 79
27 78
attle 78
chromo@@ 78
deta@@ 78
diabetes 78
disc@@ 78
jack 78
manipu@@ 78
neuron 78
popu@@ 78
real@@ 78
theor@@ 78
thr@@ 78
yn@@ 78
95 77
agri@@ 77
anda 77
ben 77
brief 77
ene 77
eping 77
hang 77
indepen@@ 77
meetings 77
olymp@@ 77
orbit 77
ota 77
retro@@ 77
stanford 77
strategi@@ 77
symbol 77
tis 77
tricks 77
tus 77
usual 77
willi@@ 77
wol@@ 77
hau@@ 76
juli@@ 76
les@@ 76
mess@@ 76
migr@@ 76
mo 76
pad 76
pan 76
partment 76
proper@@ 76
stly 76
transi@@ 76
turing 76
ually 76
vulner@@ 76
aper 75
bf 75
bol@@ 75
diff@@ 75
duced 75
fam@@ 75
genu@@ 75
illusion 75
imi@@ 75
mail 75
mili@@ 75
olo@@ 75
orange 75
pilot 75
sand@@ 75
sandwi@@ 75
scho@@ 75
tely 75
what@@ 75
zations 75
zz 75
2004 74
ald 74
arly 74
bby 74
bow@@ 74
chaos 74
fel@@ 74
ghtly 74
golf 74
higgs 74
humor 74
links 74
millen@@ 74
motivation 74
nes@@ 74
ogen@@ 74
ome@@ 74
un 74
26 73
ax@@ 73
dama@@ 73
derek 73
diplo@@ 73
expan@@ 73
experim@@ 73
experiment@@ 73
gent@@ 73
innova@@ 73
manhattan 73
microsoft 73
reson@@ 73
ski@@ 73
talent 73
tery 73
versi@@ 73
viet@@ 73
vy 73
zer 73
anthropo@@ 72
brie@@ 72
defin@@ 72
distri@@ 72
farmer 72
favor@@ 72
foun@@ 72
gst 72
inn@@ 72
janu@@ 72
ji@@ 72
lege 72
martin 72
nel 72
net@@ 72
pa 72
requ@@ 72
rier 72
rin@@ 72
sion@@ 72
stam@@ 72
stand@@ 72
transforma@@ 72
usi@@ 72
verse 72
viol@@ 72
194@@ 71
bis@@ 71
bud@@ 71
cise 71
commer@@ 71
dia 71
dialo@@ 71
fic 71
film@@ 71
frag@@ 71
gery 71
ghana 71
ograph@@ 71
plasti@@ 71
profession@@ 71
sel 71
spr@@ 71
trou@@ 71
vels 71
dam 70
fortunately 70
gle 70
iel 70
instru@@ 70
oxford 70
sty@@ 70
var@@ 70
2006 69
3.@@ 69
32 69
800 69
angeles 69
athei@@ 69
isra@@ 69
laser 69
mary 69
revol@@ 69
saturn 69
sequen@@ 69
skep@@ 69
stere@@ 69
stimu@@ 69
tag@@ 69
text@@ 69
transport 69
tude 69
tz 69
univer@@ 69
vas@@ 69
vo 69
wild@@ 69
2001 68
2003 68
anony@@ 68
edy 68
enced 68
engagement 68
expen@@ 68
fe 68
filter 68
geographic 68
grab@@ 68
legi@@ 68
mm 68
moder@@ 68
oms 68
pati@@ 68
pus 68
rely 68
trau@@ 68
trends 68
vagina 68
ville 68
14@@ 67
alien 67
angi@@ 67
au 67
cher@@ 67
collea@@ 67
dig 67
dinosau@@ 67
elt 67
follo@@ 67
glam@@ 67
hall@@ 67
han 67
hardware 67
harmon@@ 67
jon@@ 67
mir@@ 67
part@@ 67
pir@@ 67
rel 67
sation 67
sci@@ 67
sin 67
sugge@@ 67
sw 67
weal@@ 67
zens 67
250 66
alzheimer 66
astro@@ 66
band@@ 66
baseball 66
dau@@ 66
defen@@ 66
diffic@@ 66
ette 66
gand@@ 66
geno@@ 66
howard 66
ib@@ 66
imagin@@ 66
instal@@ 66
intro@@ 66
may@@ 66
neigh@@ 66
nia 66
phosp@@ 66
plat@@ 66
poster 66
priv@@ 66
republi@@ 66
tiv@@ 66
vil 66
vio@@ 66
16@@ 65
40@@ 65
ang 65
class@@ 65
commun@@ 65
dimension 65
expedi@@ 65
jo 65
listen@@ 65
nai@@ 65
parado@@ 65
pid 65
pon 65
spee@@ 65
syl@@ 65
theore@@ 65
thou@@ 65
wa 65
23 64
andre@@ 64
cambridge 64
cin 64
danger@@ 64
democra@@ 64
dru@@ 64
gut 64
hollywood 64
institu@@ 64
pho@@ 64
questi@@ 64
sport 64
alex@@ 63
app 63
bble 63
bizar@@ 63
confi@@ 63
consci@@ 63
fi 63
ga 63
geogra@@ 63
ices 63
immedi@@ 63
lee 63
optimis@@ 63
pper 63
s. 63
sey 63
steven 63
tenden@@ 63
1960 62
analog@@ 62
astrop@@ 62
ater 62
coll@@ 62
element@@ 62
florida 62
fres@@ 62
gol@@ 62
oll@@ 62
patri@@ 62
28 61
bak@@ 61
blogs 61
bronx 61
cel@@ 61
dation 61
enth@@ 61
finger@@ 61
gir@@ 61
gore 61
hori@@ 61
inde@@ 61
itali@@ 61
kit@@ 61
ko 61
lear@@ 61
mem@@ 61
minim@@ 61
mous 61
mption 61
rs 61
schizophren@@ 61
ste 61
tour@@ 61
universi@@ 61
whit@@ 61
with@@ 61
700 60
alle@@ 60
aller@@ 60
ardo 60
biolog@@ 60
brian 60
d. 60
haw@@ 60
hn@@ 60
hus@@ 60
kb 60
ker@@ 60
kor@@ 60
los@@ 60
mode 60
mote 60
phantom 60
pump@@ 60
rio 60
smith 60
syndro@@ 60
tober 60
tony 60
transp@@ 60
193@@ 59
85 59
ander 59
antibio@@ 59
bai 59
bli@@ 59
cei@@ 59
chol@@ 59
condi@@ 59
differ@@ 59
dung 59
fair@@ 59
fes@@ 59
hier@@ 59
initiative 59
kel@@ 59
og@@ 59
pollu@@ 59
quot@@ 59
rat 59
sher@@ 59
span@@ 59
temper@@ 59
therap@@ 59
zu@@ 59
ade@@ 58
bedro@@ 58
boun@@ 58
dile@@ 58
expe@@ 58
febru@@ 58
glamour 58
gur@@ 58
hallu@@ 58
henry 58
ind 58
initi@@ 58
invasi@@ 58
jesus 58
jim 58
kev@@ 58
kon@@ 58
lux@@ 58
matri@@ 58
mechanis@@ 58
planet@@ 58
run@@ 58
sche@@ 58
simulation 58
sop@@ 58
tsun@@ 58
ut 58
é@@ 58
29 57
anderth@@ 57
are@@ 57
bei@@ 57
broo@@ 57
d.@@ 57
explosion 57
hai 57
hat 57
homo 57
ht@@ 57
intuition 57
ires 57
kat@@ 57
mammo@@ 57
medic@@ 57
miner@@ 57
primi@@ 57
q 57
raft 57
ren 57
rying 57
sons 57
tumor@@ 57
verb@@ 57
wander@@ 57
wind@@ 57
-@@ 56
abra@@ 56
alli@@ 56
ander@@ 56
aster 56
eness 56
experi@@ 56
fing 56
introdu@@ 56
ipo@@ 56
joe 56
leon@@ 56
moment@@ 56
mou@@ 56
oxyto@@ 56
profi@@ 56
psycho@@ 56
restaurants 56
rul@@ 56
stal@@ 56
symbo@@ 56
tale 56
ttle 56
umines@@ 56
alter@@ 55
anthrop@@ 55
chil@@ 55
engine@@ 55
garage 55
kr@@ 55
mana@@ 55
otechn@@ 55
rb 55
ri 55
sem@@ 55
taliban 55
tel 55
terrori@@ 55
vent 55
zza 55
120 54
banglades@@ 54
emp@@ 54
entrop@@ 54
geome@@ 54
geor@@ 54
immer@@ 54
iness 54
pm 54
sei@@ 54
ah@@ 53
ala 53
ario 53
athan 53
bio 53
bob 53
burgh 53
concern@@ 53
iety 53
lincol@@ 53
metaph@@ 53
ore@@ 53
phan@@ 53
phen 53
psychop@@ 53
revolution@@ 53
thei@@ 53
typ@@ 53
2011 52
a. 52
caf@@ 52
ddle 52
dow@@ 52
eting 52
finan@@ 52
gab@@ 52
gens 52
individu@@ 52
signific@@ 52
ss@@ 52
streng@@ 52
tanz@@ 52
unter 52
venti@@ 52
2,@@ 51
alo@@ 51
ames 51
ap 51
benjam@@ 51
dul@@ 51
ever@@ 51
extre@@ 51
gel@@ 51
interpretation 51
jam@@ 51
lie@@ 51
mach 51
magne@@ 51
mor 51
mt 51
nigeri@@ 51
nis@@ 51
pag@@ 51
tier 51
ywood 51
50@@ 50
asy 50
att@@ 50
ban 50
barri@@ 50
festi@@ 50
gras 50
hol 50
impul@@ 50
lei@@ 50
quad@@ 50
rot 50
signi@@ 50
soldi@@ 50
anal@@ 49
bec@@ 49
dens 49
earli@@ 49
environ@@ 49
kore@@ 49
lief 49
moun@@ 49
prac@@ 49
tage 49
dose 48
fallen 48
gif@@ 48
iso@@ 48
justi@@ 48
landscap@@ 48
laptops 48
mama 48
nee@@ 48
ond 48
previ@@ 48
ration@@ 48
satur@@ 48
sour@@ 48
tioned 48
ung 48
alterna@@ 47
ama 47
austr@@ 47
camer@@ 47
campaig@@ 47
dium 47
figu@@ 47
manu@@ 47
motor@@ 47
opti@@ 47
pause 47
ritu@@ 47
stock@@ 47
substan@@ 47
+ 46
avo@@ 46
bank@@ 46
chem@@ 46
cient 46
dient 46
espe@@ 46
gie 46
gil@@ 46
inven@@ 46
jen@@ 46
libr@@ 46
mov@@ 46
offen@@ 46
peop@@ 46
popul@@ 46
program@@ 46
rei@@ 46
strat@@ 46
sud@@ 46
tel@@ 46
abor@@ 45
afgh@@ 45
cess@@ 45
du 45
fest@@ 45
gravi@@ 45
ig 45
ital 45
life@@ 45
mam@@ 45
nation@@ 45
ort 45
phot@@ 45
photogra@@ 45
probe 45
seem@@ 45
simu@@ 45
there@@ 45
vey 45
wart 45
watt 45
yor@@ 45
zon@@ 45
authenti@@ 44
beauti@@ 44
bile 44
cogni@@ 44
cum@@ 44
deep@@ 44
doc@@ 44
enzy@@ 44
fashi@@ 44
hard@@ 44
horizon@@ 44
ich 44
labor@@ 44
llan@@ 44
phab@@ 44
pro 44
remark@@ 44
spea@@ 44
sten@@ 44
stopp@@ 44
teach@@ 44
transplan@@ 44
tty 44
valu@@ 44
zin@@ 44
anno@@ 43
anten@@ 43
chel 43
clear@@ 43
evi@@ 43
ision 43
mathema@@ 43
met@@ 43
pedia 43
tu 43
ularly 43
use@@ 43
utes 43
cess 42
ech@@ 42
eing 42
equi@@ 42
great@@ 42
hl@@ 42
knowle@@ 42
lli@@ 42
meta@@ 42
sexu@@ 42
strate@@ 42
tent@@ 42
é 42
abo@@ 41
bir@@ 41
ener@@ 41
fossi@@ 41
gan 41
gel 41
nes 41
phic 41
rais@@ 41
rt 41
satelli@@ 41
selves 41
stol@@ 41
ultra@@ 41
world@@ 41
aly@@ 40
chur@@ 40
enor@@ 40
ficial 40
gues 40
infra@@ 40
ja 40
kal@@ 40
prise 40
rest@@ 40
steri@@ 40
stes 40
zer@@ 40
zy 40
actu@@ 39
alia 39
ann 39
com 39
cris@@ 39
defini@@ 39
gold@@ 39
ins@@ 39
lan 39
machin@@ 39
nis 39
norden 39
nt 39
num@@ 39
para@@ 39
perfe@@ 39
politi@@ 39
princi@@ 39
sam 39
sequences 39
ston 39
tags 39
usa 39
dar 38
dden 38
enha@@ 38
eth 38
implan@@ 38
kn@@ 38
mati@@ 38
nie 38
nik 38
nom@@ 38
profess@@ 38
py@@ 38
stan 38
sup@@ 38
aa@@ 37
anth@@ 37
beh@@ 37
convin@@ 37
dest@@ 37
dol@@ 37
ens@@ 37
epide@@ 37
materi@@ 37
mber 37
ross 37
scap@@ 37
stabili@@ 37
stin 37
tedx@@ 37
teenager 37
tts 37
vid 37
vul@@ 37
arm@@ 36
ause 36
brilli@@ 36
exer@@ 36
halt 36
itely 36
ket@@ 36
mails 36
melt 36
stir@@ 36
tiger 36
unity 36
ware 36
agi@@ 35
chemi@@ 35
chin@@ 35
chron@@ 35
deb@@ 35
effici@@ 35
eil 35
fest 35
kol@@ 35
lied 35
mann 35
mobili@@ 35
phy@@ 35
responsi@@ 35
sands 35
scienti@@ 35
soc@@ 35
spu@@ 35
stein 35
von 35
appropri@@ 34
beha@@ 34
belo@@ 34
homo@@ 34
issu@@ 34
kilometer 34
laden 34
lap@@ 34
ony@@ 34
pau@@ 34
seri@@ 34
urs 34
aus@@ 33
emotion@@ 33
has@@ 33
ire 33
kei@@ 33
mexi@@ 33
perspe@@ 33
read@@ 33
strand 33
vir@@ 33
adul@@ 32
beginn@@ 32
brazi@@ 32
fically 32
hen 32
hir@@ 32
nett 32
sms 32
suc@@ 32
tages 32
tali@@ 32
tech@@ 32
tish 32
bilities 31
ctly 31
energi@@ 31
gala@@ 31
garten 31
hn 31
integri@@ 31
mau@@ 31
nas@@ 31
notic@@ 31
oce@@ 31
ose 31
quick@@ 31
resul@@ 31
sie@@ 31
sprin@@ 31
volun@@ 31
wen@@ 31
xic@@ 31
zen@@ 31
= 30
astron@@ 30
atmosp@@ 30
bang@@ 30
easi@@ 30
entreprene@@ 30
ler@@ 30
mach@@ 30
maga@@ 30
mers 30
ousness 30
sug@@ 30
technologi@@ 30
through@@ 30
traff@@ 30
tren@@ 30
vat@@ 30
west@@ 30
will@@ 30
yel@@ 30
ada 29
anthro@@ 29
aria 29
eit 29
electri@@ 29
exist@@ 29
ft@@ 29
jung@@ 29
las 29
marke@@ 29
bet@@ 28
bron@@ 28
child@@ 28
die@@ 28
ein@@ 28
gigan@@ 28
kinder@@ 28
kra@@ 28
lage 28
passion@@ 28
recy@@ 28
rie@@ 28
sie 28
tea@@ 28
tops 28
tte 28
vili@@ 28
á@@ 28
billi@@ 27
frie@@ 27
muse@@ 27
paki@@ 27
relev@@ 27
shou@@ 27
stell@@ 27
sten 27
tradition@@ 27
wom@@ 27
aner 26
bon 26
boot 26
bot 26
busin@@ 26
chs 26
del 26
dn@@ 26
dp 26
effec@@ 26
eig@@ 26
gar 26
gement 26
hm@@ 26
mmer 26
natur@@ 26
proble@@ 26
psy@@ 26
stim@@ 26
unter@@ 26
zine 26
anim@@ 25
capac@@ 25
dee@@ 25
four@@ 25
freu@@ 25
gat@@ 25
hospit@@ 25
massi@@ 25
nega@@ 25
ques 25
sach@@ 25
ssi@@ 25
standar@@ 25
symp@@ 25
tot@@ 25
valent 25
accor@@ 24
block@@ 24
cker@@ 24
das 24
deca@@ 24
elle 24
euro@@ 24
fas@@ 24
hig@@ 24
hung 24
intelli@@ 24
ira@@ 24
kam@@ 24
nah 24
oly@@ 24
perfor@@ 24
pers@@ 24
schwar@@ 24
sear@@ 24
stati@@ 24
vag@@ 24
vil@@ 24
aller 23
alls 23
aus 23
bare 23
beg@@ 23
bibli@@ 23
eins 23
fort 23
git@@ 23
grou@@ 23
iti 23
jour@@ 23
len 23
rd 23
rief 23
sth@@ 23
tremend@@ 23
allen 22
alter 22
auto 22
avail@@ 22
digit@@ 22
elli@@ 22
geria 22
hou@@ 22
imp@@ 22
intellec@@ 22
kle 22
mista@@ 22
socie@@ 22
spiritu@@ 22
tality 22
tempor@@ 22
toll 22
zar@@ 22
atur@@ 21
benef@@ 21
chers 21
das@@ 21
emis@@ 21
employe@@ 21
eur@@ 21
europa 21
ffer 21
k. 21
kab@@ 21
kur@@ 21
nie@@ 21
ox@@ 21
phen@@ 21
pian@@ 21
poe@@ 21
presi@@ 21
rand 21
rant 21
sat@@ 21
tten 21
atz 20
bili@@ 20
cals 20
ein 20
evolution@@ 20
handy 20
hri@@ 20
internation@@ 20
kir@@ 20
let@@ 20
marri@@ 20
mee 20
miss@@ 20
osau@@ 20
ough@@ 20
pel 20
performan@@ 20
pie@@ 20
vail@@ 20
americ@@ 19
anders 19
cule 19
famili@@ 19
je 19
know@@ 19
lang@@ 19
lem 19
ppe 19
ruption 19
tie@@ 19
witz 19
won@@ 19
aler 18
bart 18
complic@@ 18
decisi@@ 18
doll@@ 18
ebook 18
foreig@@ 18
gton 18
kamen 18
maj@@ 18
meer 18
milit@@ 18
mond 18
professi@@ 18
tern@@ 18
) 17
brin@@ 17
comfort@@ 17
efully 17
europe@@ 17
extrem@@ 17
fahr@@ 17
geri@@ 17
grow@@ 17
holl@@ 17
hr 17
intelle@@ 17
kay 17
klein 17
ks@@ 17
mali@@ 17
resour@@ 17
wiki@@ 17
zur@@ 17
% 16
affe@@ 16
bau@@ 16
bitten 16
bren@@ 16
chen 16
deu@@ 16
enheit 16
ffe 16
gend 16
glas 16
grad 16
hab 16
kri@@ 16
kt 16
lang 16
pagne 16
posite 16
situ@@ 16
solu@@ 16
train@@ 16
where@@ 16
atem@@ 15
awar@@ 15
bald 15
cke 15
ellen 15
esse 15
him@@ 15
ille 15
kap@@ 15
leu@@ 15
lich@@ 15
neur@@ 15
nte 15
ould 15
oxy@@ 15
parti@@ 15
patter@@ 15
prot@@ 15
rhy@@ 15
schil@@ 15
sophisti@@ 15
vern@@ 15
wu@@ 15
000 14
@ 14
alt@@ 14
aut 14
b. 14
chro@@ 14
cken@@ 14
derer 14
dies@@ 14
egal 14
ek@@ 14
event@@ 14
fern@@ 14
gei@@ 14
gs@@ 14
heim 14
invisi@@ 14
kli@@ 14
klu@@ 14
kurz@@ 14
lagen 14
other@@ 14
reme@@ 14
sein 14
stop@@ 14
studi@@ 14
tivi@@ 14
trilli@@ 14
unbe@@ 14
vide@@ 14
weil 14
wick@@ 14
zy@@ 14
# 13
.b. 13
_ 13
astern 13
beri@@ 13
diab@@ 13
dit 13
exac@@ 13
feed@@ 13
fei@@ 13
ffe@@ 13
informa@@ 13
intensi@@ 13
phar@@ 13
safe@@ 13
sch 13
simp@@ 13
stero@@ 13
technolog@@ 13
í@@ 13
autos 12
cken 12
curity 12
fren@@ 12
kla@@ 12
km 12
kro@@ 12
leb@@ 12
meister 12
mus 12
olog@@ 12
omen 12
schwi@@ 12
stom@@ 12
strom 12
upp@@ 12
aden 11
alg@@ 11
betra@@ 11
bis 11
britan@@ 11
call@@ 11
dab@@ 11
dimension@@ 11
dn 11
goog@@ 11
hl 11
inner@@ 11
isla@@ 11
liche 11
lk@@ 11
mir 11
pover@@ 11
stab@@ 11
stige 11
terr@@ 11
tol@@ 11
ó@@ 11
big@@ 10
compan@@ 10
dem 10
diag@@ 10
eine 10
fanta@@ 10
feld 10
herr@@ 10
hmen 10
hundre@@ 10
ih@@ 10
intu@@ 10
kind@@ 10
lag 10
mei@@ 10
mexic@@ 10
mith@@ 10
mole@@ 10
organ@@ 10
soft@@ 10
spen@@ 10
stark 10
telev@@ 10
toll@@ 10
vier 10
wollen 10
wur@@ 10
è@@ 10
abili@@ 9
auge 9
chen@@ 9
ender 9
erer 9
fen@@ 9
feu@@ 9
geist 9
ges@@ 9
gren@@ 9
hler 9
ith 9
kinder 9
klei@@ 9
meth@@ 9
nerv@@ 9
norm@@ 9
ok@@ 9
paci@@ 9
pf@@ 9
pol 9
rad@@ 9
rau@@ 9
rough@@ 9
scha@@ 9
schul@@ 9
spit@@ 9
stens 9
stern 9
stung 9
tier@@ 9
til 9
zu 9
( 8
aber 8
atten 8
brot 8
buch@@ 8
cept 8
chir@@ 8
cht@@ 8
fen 8
fiel@@ 8
formi@@ 8
gend@@ 8
gni@@ 8
gyp@@ 8
hm 8
hoff@@ 8
instit@@ 8
kas 8
kel 8
kle@@ 8
kus@@ 8
muster 8
pment 8
rem 8
sche 8
sophi@@ 8
stein@@ 8
stur@@ 8
sung 8
tex 8
verti@@ 8
zeit@@ 8
^ 7
beau@@ 7
best@@ 7
bie@@ 7
cht 7
chter 7
dir 7
eis@@ 7
frei@@ 7
funk@@ 7
geb@@ 7
gem 7
kun@@ 7
ld 7
lle 7
masse 7
mutter@@ 7
normal@@ 7
oren 7
ote 7
schen 7
schnei@@ 7
slow@@ 7
solar@@ 7
tei@@ 7
them@@ 7
tice 7
uten 7
vices 7
weapon@@ 7
wen 7
brau@@ 6
desig@@ 6
ende 6
eren 6
ffen 6
gele@@ 6
haus@@ 6
inn 6
job@@ 6
kapu@@ 6
lager 6
lik@@ 6
mel 6
nach@@ 6
natu@@ 6
nun 6
rad 6
raid 6
reich 6
samer 6
sich@@ 6
spiel@@ 6
stad@@ 6
stif@@ 6
thom@@ 6
tod 6
tung 6
wie@@ 6
zig 6
zir@@ 6
amer@@ 5
cisco 5
ehrlich 5
eler@@ 5
emo@@ 5
health@@ 5
isch 5
jes@@ 5
kleiner 5
kraft 5
kul@@ 5
kung 5
langu@@ 5
mitten 5
mme 5
n. 5
ob 5
prei@@ 5
protot@@ 5
quasi 5
rö@@ 5
silic@@ 5
sinn@@ 5
stab 5
stead 5
steu@@ 5
tau@@ 5
techn@@ 5
tem 5
tet 5
tete 5
ully 5
video@@ 5
wand 5
ã@@ 5
í 5
acht 4
angst 4
asse 4
att 4
auff@@ 4
baum@@ 4
blas@@ 4
califor@@ 4
dass 4
disci@@ 4
dise@@ 4
doch 4
econ@@ 4
ele 4
ente 4
enz 4
erin 4
ernst 4
etes 4
etz 4
feel@@ 4
fisch@@ 4
flei@@ 4
fore 4
ften 4
grie@@ 4
gross@@ 4
gung 4
hart 4
hast 4
haus 4
heu@@ 4
ik 4
insel 4
kern@@ 4
klas@@ 4
koll@@ 4
kom@@ 4
kop@@ 4
kre@@ 4
kunst@@ 4
liqu@@ 4
mmer@@ 4
mobil@@ 4
mund 4
nen 4
omen@@ 4
orten 4
pf 4
pite 4
quas@@ 4
scher 4
smit@@ 4
strateg@@ 4
tern 4
trie@@ 4
viron@@ 4
wagen 4
ween 4
wein@@ 4
wo 4
zei@@ 4
zent@@ 4
zep@@ 4
zit@@ 4
ç@@ 4
ê@@ 4
อ@@ 4
* 3
21@@ 3
absol@@ 3
auf 3
bein 3
berg@@ 3
besser 3
brei@@ 3
brenn@@ 3
bs@@ 3
complex@@ 3
degre@@ 3
det 3
det@@ 3
dok@@ 3
dorf 3
drin 3
eben 3
engli@@ 3
erde 3
eres 3
expon@@ 3
felder 3
fert 3
fft 3
fig 3
fs@@ 3
gabe 3
gegen@@ 3
genug 3
glau@@ 3
goti@@ 3
halten@@ 3
happen@@ 3
ien 3
immer 3
klo@@ 3
kog@@ 3
ktor 3
lange 3
lern@@ 3
lich 3
lige 3
mend@@ 3
mie 3
mie@@ 3
mitt@@ 3
nah@@ 3
nein 3
nst 3
ober@@ 3
onie 3
opport@@ 3
programme 3
repar@@ 3
schi@@ 3
schizop@@ 3
schle@@ 3
schwei@@ 3
seine 3
sep@@ 3
ske@@ 3
spiegel 3
stil 3
sz@@ 3
tat 3
teu@@ 3
toge@@ 3
tun 3
ult 3
uner@@ 3
wald 3
yester@@ 3
your@@ 3
zog 3
zop@@ 3
â 3
ñ@@ 3
ö@@ 3
abend 2
absolu@@ 2
aku@@ 2
alen 2
alles 2
atur 2
aum 2
bein@@ 2
bele@@ 2
blatt 2
casi@@ 2
chti@@ 2
computer@@ 2
dership 2
destru@@ 2
deut@@ 2
eben@@ 2
echt 2
ei 2
eigen@@ 2
einem 2
ellen@@ 2
elles 2
entre@@ 2
essen 2
etings 2
fort@@ 2
freude 2
für 2
ganz 2
gebra@@ 2
geld@@ 2
haps 2
herr 2
hier 2
hin 2
hinder@@ 2
hinter@@ 2
hle 2
holt 2
ige 2
iger 2
incredi@@ 2
intelligen@@ 2
kapital 2
kran@@ 2
kt@@ 2
kus 2
langer 2
lauf@@ 2
laut 2
licht@@ 2
mein@@ 2
mensch 2
merk@@ 2
micha@@ 2
nen@@ 2
ost@@ 2
possi@@ 2
prü@@ 2
pä@@ 2
regen@@ 2
reich@@ 2
roh@@ 2
rote 2
schlei@@ 2
schmu@@ 2
schn@@ 2
schu@@ 2
spie@@ 2
spiel 2
spru@@ 2
sse 2
ssen 2
stag 2
trie 2
tsch@@ 2
uss@@ 2
verk@@ 2
vog@@ 2
waff@@ 2
washin@@ 2
wie 2
wird 2
wus@@ 2
zin 2
zt 2
zwei@@ 2
£ 2
² 2
à 2
ä@@ 2
è 2
ø@@ 2
ü 2
ā@@ 2
ร 2
่ 2
.. 1
.000 1
\ 1
abli@@ 1
aga@@ 1
agen 1
allgemeinen 1
anz 1
auf@@ 1
autor@@ 1
baum 1
bei 1
bern 1
beza@@ 1
blau 1
bras@@ 1
brasili@@ 1
cen 1
chic@@ 1
childr@@ 1
chten@@ 1
dank 1
debat@@ 1
denly 1
desto 1
devel@@ 1
dopp@@ 1
druck 1
durch 1
effi@@ 1
eigent@@ 1
eini@@ 1
eln 1
engl@@ 1
ertes 1
every@@ 1
ewi@@ 1
feuer@@ 1
ffee 1
fisch 1
flori@@ 1
frau 1
frei 1
fte 1
gab 1
gedanken 1
gere@@ 1
geru@@ 1
gerä@@ 1
geschü@@ 1
gott 1
guten 1
gö@@ 1
habe 1
haf@@ 1
haft 1
haut 1
heim@@ 1
herz 1
hie@@ 1
hlen@@ 1
holz@@ 1
hosp@@ 1
hren@@ 1
idee 1
ier@@ 1
ingen 1
internationale 1
ische 1
japan@@ 1
kam 1
kampf 1
kauf@@ 1
keiten 1
kern 1
kolle@@ 1
konz@@ 1
krieg 1
ktu@@ 1
kunst 1
kö@@ 1
kü@@ 1
lebe@@ 1
legen 1
lichen 1
liches 1
lig 1
llen 1
lok@@ 1
lö@@ 1
mals 1
manhat@@ 1
marki@@ 1
mathe@@ 1
maus 1
mehr@@ 1
mein 1
meine 1
mensch@@ 1
molecul@@ 1
moral@@ 1
morgen 1
mut 1
mä@@ 1
möglich 1
national@@ 1
neue 1
nung 1
obvi@@ 1
onen 1
othe@@ 1
politik 1
ppen 1
quant@@ 1
rants 1
rech@@ 1
recht@@ 1
rede 1
regel@@ 1
regen 1
relation@@ 1
rett@@ 1
risi@@ 1
robot@@ 1
schaf@@ 1
schau@@ 1
schen@@ 1
schl@@ 1
schluss 1
schnell 1
schwe@@ 1
schwin@@ 1
sei 1
sohn 1
spezi@@ 1
sst 1
stie@@ 1
stud@@ 1
sweise 1
sä@@ 1
tere 1
thema 1
toile@@ 1
tot 1
toten 1
trum 1
tsam 1
tur 1
tze 1
tzen 1
tzt 1
unities 1
verdi@@ 1
viel@@ 1
von@@ 1
wech@@ 1
weg@@ 1
wege 1
welche 1
welle 1
welt 1
wider@@ 1
wies@@ 1
windo@@ 1
wirkungen 1
wurz@@ 1
zel@@ 1
zell@@ 1
zelle 1
zielen 1
zun@@ 1
zur 1
zw@@ 1
zwe@@ 1
± 1
â@@ 1
ë@@ 1
ï@@ 1
ô@@ 1
ön@@ 1
ú@@ 1
ü@@ 1
über 1
ă@@ 1
ć 1
ē 1
ť 1
ย 1
ย@@ 1
€ 1
√ 1
你@@ 1
葱 1
送@@ 1
